{"version":"1.0","truncation":null,"padding":null,"added_tokens":[],"normalizer":null,"pre_tokenizer":{"type":"ByteLevel","add_prefix_space":false,"trim_offsets":true},"post_processor":{"type":"ByteLevel","add_prefix_space":true,"trim_offsets":false},"decoder":{"type":"ByteLevel","add_prefix_space":true,"trim_offsets":true},"model":{"type":"BPE","dropout":null,"unk_token":null,"continuing_subword_prefix":null,"end_of_word_suffix":null,"fuse_unk":false,"vocab":{"!":0,"\"":1,"#":2,"$":3,"%":4,"&":5,"'":6,"(":7,")":8,"*":9,"+":10,",":11,"-":12,".":13,"/":14,"0":15,"1":16,"2":17,"3":18,"4":19,"5":20,"6":21,"7":22,"8":23,"9":24,":":25,";":26,"<":27,"=":28,">":29,"?":30,"@":31,"A":32,"B":33,"C":34,"D":35,"E":36,"F":37,"G":38,"H":39,"I":40,"J":41,"K":42,"L":43,"M":44,"N":45,"O":46,"P":47,"Q":48,"R":49,"S":50,"T":51,"U":52,"V":53,"W":54,"X":55,"Y":56,"Z":57,"[":58,"\\":59,"]":60,"^":61,"_":62,"`":63,"a":64,"b":65,"c":66,"d":67,"e":68,"f":69,"g":70,"h":71,"i":72,"j":73,"k":74,"l":75,"m":76,"n":77,"o":78,"p":79,"q":80,"r":81,"s":82,"t":83,"u":84,"v":85,"w":86,"x":87,"y":88,"z":89,"{":90,"|":91,"}":92,"~":93,"¡":94,"¢":95,"£":96,"¤":97,"¥":98,"¦":99,"§":100,"¨":101,"©":102,"ª":103,"«":104,"¬":105,"®":106,"¯":107,"°":108,"±":109,"²":110,"³":111,"´":112,"µ":113,"¶":114,"·":115,"¸":116,"¹":117,"º":118,"»":119,"¼":120,"½":121,"¾":122,"¿":123,"À":124,"Á":125,"Â":126,"Ã":127,"Ä":128,"Å":129,"Æ":130,"Ç":131,"È":132,"É":133,"Ê":134,"Ë":135,"Ì":136,"Í":137,"Î":138,"Ï":139,"Ð":140,"Ñ":141,"Ò":142,"Ó":143,"Ô":144,"Õ":145,"Ö":146,"×":147,"Ø":148,"Ù":149,"Ú":150,"Û":151,"Ü":152,"Ý":153,"Þ":154,"ß":155,"à":156,"á":157,"â":158,"ã":159,"ä":160,"å":161,"æ":162,"ç":163,"è":164,"é":165,"ê":166,"ë":167,"ì":168,"í":169,"î":170,"ï":171,"ð":172,"ñ":173,"ò":174,"ó":175,"ô":176,"õ":177,"ö":178,"÷":179,"ø":180,"ù":181,"ú":182,"û":183,"ü":184,"ý":185,"þ":186,"ÿ":187,"Ā":188,"ā":189,"Ă":190,"ă":191,"Ą":192,"ą":193,"Ć":194,"ć":195,"Ĉ":196,"ĉ":197,"Ċ":198,"ċ":199,"Č":200,"č":201,"Ď":202,"ď":203,"Đ":204,"đ":205,"Ē":206,"ē":207,"Ĕ":208,"ĕ":209,"Ė":210,"ė":211,"Ę":212,"ę":213,"Ě":214,"ě":215,"Ĝ":216,"ĝ":217,"Ğ":218,"ğ":219,"Ġ":220,"ġ":221,"Ģ":222,"ģ":223,"Ĥ":224,"ĥ":225,"Ħ":226,"ħ":227,"Ĩ":228,"ĩ":229,"Ī":230,"ī":231,"Ĭ":232,"ĭ":233,"Į":234,"į":235,"İ":236,"ı":237,"Ĳ":238,"ĳ":239,"Ĵ":240,"ĵ":241,"Ķ":242,"ķ":243,"ĸ":244,"Ĺ":245,"ĺ":246,"Ļ":247,"ļ":248,"Ľ":249,"ľ":250,"Ŀ":251,"ŀ":252,"Ł":253,"ł":254,"Ń":255,"es":256,"re":257,"on":258,"er":259,"in":260,"ti":261,");":262,"al":263,"Ġ=":264,"te":265,"tion":266,"qu":267,"est":268,"li":269,"quest":270,"ar":271,"st":272,"et":273,"en":274,"ub":275,"tu":276,"Re":277,"lic":278,"In":279,"or":280,"ublic":281,"public":282,"se":283,"ption":284,"rn":285,"retu":286,"return":287,");}":288,"le":289,"an":290,"request":291,"ing":292,"ce":293,"Res":294,"th":295,"){":296,"sh":297,"Ġn":298,"Ġ{":299,"ptions":300,"St":301,"ex":302,"ate":303,"ri":304,"Ġ(":305,"Request":306,"ec":307,"Ġo":308,"int":309,"all":310,"pon":311,"ring":312,"Respon":313,"Response":314,"aller":315,"arsh":316,"ro":317,"arshaller":318,"ul":319,"ew":320,";}":321,"Ġb":322,"am":323,"if":324,"at":325,"Ġv":326,"Ġnew":327,"ok":328,"is":329,"el":330,"ch":331,"ut":332,"ent":333,"String":334,"stan":335,"fi":336,"()":337,"Ex":338,"ff":339,"Instan":340,"Instance":341,"Un":342,"it":343,"Co":344,"();":345,"lo":346,"de":347,"ĠIn":348,"alu":349,"ecu":350,"Get":351,"dex":352,"end":353,"get":354,"ap":355,"rib":356,"ĠD":357,"ir":358,"ter":359,"ra":360,"un":361,"si":362,"options":363,"vok":364,"voke":365,"um":366,"Ġ+":367,"Ġrequest":368,"Unm":369,"il":370,"Marshaller":371,"ĠInvoke":372,"Ġoptions":373,"RequestMarshaller":374,"ResponseUnm":375,"ResponseUnmarshaller":376,"set":377,"ame":378,"ult":379,"Ġ\"":380,"ad":381,"ist":382,"co":383,"id":384,"Ġ0":385,"esc":386,"this":387,"ĠĠ":388,"up":389,"tual":390,"ribe":391,"irtual":392,"escribe":393,"Con":394,"pend":395,"Ġint":396,"Ġvirtual":397,"ord":398,"ation":399,"(\"":400,"Ġst":401,"ffer":402,"List":403,"Ġs":404,"ck":405,"uffer":406,"reate":407,"alue":408,"po":409,"Index":410,"ze":411,"eld":412,"Ġin":413,"ma":414,"fo":415,"row":416,"eng":417,"lete":418,"ength":419,"ull":420,"Ġc":421,"ver":422,"De":423,"entEx":424,"Name":425,"Ġf":426,"ge":427,"Ġd":428,"Ġt":429,"oo":430,"cord":431,"Create":432,"ception":433,"mp":434,"Ġex":435,"En":436,"ab":437,"ort":438,"ect":439,"ĠGet":440,"res":441,"Cli":442,"as":443,"Ġ==":444,"Ap":445,"();}":446,"Options":447,"yte":448,"Result":449,"Sh":450,"Ġnull":451,"Ġi":452,"fore":453,"put":454,"Ġbe":455,"To":456,"Record":457,"var":458,"bj":459,"ffset":460,"unt":461,"Id":462,"ecution":463,">(":464,"field":465,"Ar":466,"ray":467,"Ġvo":468,"ecute":469,"art":470,"Ġvoid":471,"throw":472,"ClientEx":473,"ed":474,"[]":475,"Ġbefore":476,"Ġexecute":477,"ĠInvokeOptions":478,"ClientExecution":479,"ĠbeforeClientExecution":480,"Up":481,"Ev":482,"ize":483,"oc":484,"date":485,"roup":486,"Ch":487,"yp":488,"ur":489,"orm":490,"ĠString":491,"(){":492,"Ġ<":493,"Ġp":494,"Set":495,"ot":496,"gs":497,"Ġget":498,"ct":499,"ĠDescribe":500,"Exception":501,"ase":502,"od":503,"lock":504,"ild":505,"Group":506,"Pro":507,"bject":508,"Ġl":509,"oken":510,"verri":511,"verride":512,"Po":513,"Value":514,"append":515,"Update":516,"ty":517,"ment":518,"ata":519,"Append":520,"Ġre":521,"Ġoverride":522,"ction":523,"ype":524,"ow":525,"ext":526,"Ġm":527,"ĠDe":528,"Ġ!":529,").":530,"Ġ>":531,"ser":532,"Bu":533,"Qu":534,"ĠS":535,"able":536,"ve":537,"ream":538,"ey":539,"Ġ-":540,"atch":541,"sion":542,"ces":543,"Fi":544,"ry":545,"ĠCreate":546,"fig":547,"Cl":548,"ĠList":549,"Buffer":550,"Ġ!=":551,"Ġ1":552,"++":553,"Length":554,"ĠDelete":555,"At":556,"Count":557,"ati":558,"Build":559,"string":560,"Ref":561,"Config":562,"ren":563,"Stream":564,"\");":565,"tes":566,"ytes":567,"Type":568,"rite":569,"Array":570,"Size":571,"to":572,"ong":573,"ery":574,"Col":575,"Ad":576,"Token":577,"eet":578,"ue":579,"va":580,"la":581,"Ġar":582,"Ġboo":583,"Describe":584,"Offset":585,"Ġ&":586,"ta":587,"per":588,"ator":589,"Builder":590,"Read":591,"ĠI":592,"\",":593,"Object":594,"tem":595,"buffer":596,"ust":597,"inal":598,"Par":599,"Form":600,"length":601,"ĠĠĠĠ":602,"Ġthis":603,"Add":604,"Ġe":605,"Fil":606,"out":607,"Delete":608,"age":609,"sRequest":610,"Eval":611,"for":612,"ig":613,"ule":614,"erm":615,"Short":616,"Ġ_":617,"mit":618,"pos":619,"Query":620,"End":621,"atic":622,"oub":623,"ouble":624,"sition":625,"Ġco":626,"ĠM":627,"tern":628,"main":629,"alse":630,"ava":631,"rc":632,"ay":633,"else":634,"No":635,"ath":636,"ber":637,"our":638,"ass":639,"Ġj":640,"ell":641,"Ġstatic":642,"ory":643,"and":644,"Row":645,"ac":646,"Cell":647,"Ġstring":648,"Data":649,"lean":650,"ack":651,"ork":652,"Char":653,"als":654,"result":655,"char":656,"alues":657,"byte":658,"ther":659,"size":660,"ic":661,"ol":662,"sResponse":663,"Ac":664,"Filter":665,"red":666,"ach":667,"Com":668,"Ġfalse":669,"tex":670,"As":671,"ĠP":672,"ToString":673,"rent":674,"Lo":675,"ration":676,"text":677,"Num":678,"ĠUpdate":679,"try":680,"ource":681,"mo":682,"enti":683,");}}":684,"trib":685,";}}":686,"ran":687,"til":688,"val":689,"Field":690,"ĠB":691,"Ġto":692,"ted":693,"ten":694,"Term":695,"rue":696,"ll":697,"Key":698,"Of":699,"Ġindex":700,"Ġr":701,"Ġw":702,"sage":703,"Ġsrc":704,"Ġvalue":705,"odif":706,"ĠRe":707,"An":708,"ute":709,"umn":710,"uration":711,"Start":712,"Int":713,"way":714,"Clust":715,"Cluster":716,"rom":717,"ash":718,"ys":719,"Configuration":720,"ror":721,"Sheet":722,"Format":723,"Ġ|":724,"Ġ:":725,"Arg":726,"Gate":727,"Gateway":728,"Jo":729,"one":730,"];":731,"Attrib":732,"Ġoffset":733,"Text":734,"Ġsh":735,"Polic":736,"fa":737,"py":738,"sb":739,"max":740,"locks":741,"Ver":742,"index":743,"shot":744,"Map":745,"Vp":746,"nap":747,"ystem":748,"oci":749,"napshot":750,"ĠE":751,"iz":752,"DB":753,"State":754,"ange":755,"Byte":756,"Ġtrue":757,"Rule":758,"Ġli":759,"Bytes":760,"ree":761,"Out":762,"fic":763,"io":764,"().":765,"Doc":766,"))":767,"Ġstart":768,"uf":769,"eter":770,"read":771,"ameter":772,"Write":773,"Argum":774,"case":775,"args":776,"bo":777,"Ġ&&":778,"im":779,"op":780,"move":781,"Ġjava":782,"Ġother":783,"Sub":784,"\");}":785,"pt":786,"Ġbyte":787,"und":788,"Met":789,"Se":790,"entException":791,"Tran":792,"ion":793,"ID":794,"Job":795,"count":796,"Ġbuffer":797,"new":798,"pa":799,"File":800,"Number":801,"Policy":802,"key":803,"eri":804,"quals":805,"Ġout":806,"Ġfield":807,"ctory":808,"Ġbool":809,"odify":810,"urrent":811,"ArgumentException":812,"add":813,"Column":814,"ĠN":815,"Ġboolean":816,"Work":817,"position":818,"eck":819,"name":820,"Snapshot":821,"Ġis":822,"ast":823,"rea":824,"())":825,"IN":826,"value":827,"Lin":828,"sed":829,"col":830,"con":831,"ian":832,"final":833,"erv":834,"Block":835,"low":836,"leg":837,"Conn":838,"Version":839,"cess":840,"ache":841,"ress":842,"essage":843,"omain":844,"Fa":845,"Ġde":846,"Ass":847,"For":848,"ValueEval":849,"ice":850,"Trans":851,"Ġresult":852,"ity":853,"Hex":854,"Ġh":855,"Ġargs":856,"Ġ||":857,"ociate":858,"Ġlong":859,"Identi":860,"From":861,"SS":862,"());}":863,"((":864,"om":865,"Ġa":866,"TE":867,"ind":868,"rror":869,"mpl":870,"User":871,"ire":872,"Input":873,"ary":874,"Entry":875,"Ta":876,"Evalu":877,"ula":878,"Tree":879,"());":880,"Ġ(!":881,"Comp":882,"Instances":883,"write":884,"Ġ>=":885,"ask":886,"ames":887,"sup":888,"ĠĠĠ":889,"Ġcreate":890,"array":891,"Ġlen":892,"term":893,"ode":894,"Domain":895,"cher":896,"ĠStringBuilder":897,"gn":898,"object":899,"Ġend":900,"hod":901,"Vpc":902,"Ġ2":903,"ĠR":904,"point":905,"long":906,"plic":907,"StringBuilder":908,"Util":909,"ip":910,"tific":911,"tle":912,"Node":913,"loat":914,"Parameter":915,"boo":916,"sResult":917,"Ġ?":918,"Ġ+=":919,"AL":920,"Ġ((":921,"values":922,"Ġbase":923,"Event":924,"Output":925,"Ġ'":926,"Ġfi":927,"Lit":928,"ger":929,"Endian":930,"tleEndian":931,"LittleEndian":932,"port":933,"fault":934,"yn":935,"stance":936,"Ġdescribe":937,"Class":938,"super":939,"Ġset":940,"sc":941,"On":942,"maining":943,"Ro":944,"sRequestMarshaller":945,"sResponseUnmarshaller":946,"ision":947,"Task":948,"Ġ*":949,"Cache":950,"Info":951,"Ġname":952,"plication":953,"ard":954,"attern":955,"utes":956,"RE":957,"ann":958,"(_":959,"Ima":960,"double":961,"ith":962,"nio":963,"tain":964,"ĠC":965,"igh":966,"reak":967,"Bo":968,"fix":969,"ape":970,"ĠSet":971,"Ġelse":972,"Ph":973,"ile":974,"code":975,"load":976,"legal":977,"++]":978,"erial":979,"SSF":980,"cell":981,"Te":982,"Inter":983,"=\"":984,"llegal":985,"HSSF":986,"){_":987,"sert":988,"Endpoint":989,";_":990,"Range":991,"ont":992,"Oper":993,"Git":994,"ĠF":995,"Identity":996,")){":997,"ST":998,"tim":999,"Al":1000,"Names":1001,"cer":1002,"Ġpos":1003,"Message":1004,"Path":1005,"));}":1006,"Dete":1007,"ObjectId":1008,"form":1009,"Ġ.":1010,"OR":1011,"Copy":1012,"toString":1013,"Ġlist":1014,"Method":1015,"Templ":1016,"Log":1017,"ĠtoString":1018,"alan":1019,"Sch":1020,"AT":1021,"Context":1022,"Ġarray":1023,"ĠIllegal":1024,"Ġsize":1025,"Profi":1026,"ĠToString":1027,"arget":1028,"cl":1029,"));":1030,"cal":1031,"Image":1032,"iction":1033,"rst":1034,"(),":1035,"unction":1036,"em":1037,"He":1038,"ly":1039,"Reader":1040,"util":1041,"Attributes":1042,"Balan":1043,"len":1044,"pec":1045,"OException":1046,"ine":1047,"der":1048,"Rev":1049,"Ġchar":1050,"rity":1051,"ĠSystem":1052,"book":1053,"(\"\\":1054,"Attribute":1055,"ection":1056,"Comm":1057,"Template":1058,"Or":1059,"terator":1060,"izer":1061,"Link":1062,"ColumnIndex":1063,"num":1064,"Put":1065,"Tra":1066,"are":1067,"._":1068,"Balancer":1069,"Error":1070,"Ġ\").":1071,"Tim":1072,"ting":1073,"limit":1074,"('":1075,"ER":1076,"uth":1077,"Ġse":1078,"Parse":1079,"irst":1080,"FF":1081,"ĠValueEval":1082,"iter":1083,"Secu":1084,"Formula":1085,"tener":1086,"ĠL":1087,"atu":1088,"Ġlength":1089,"mpty":1090,"RowIndex":1091,"Security":1092,"Source":1093,"ession":1094,"start":1095,"Ġmax":1096,"Proper":1097,"System":1098,"First":1099,"Pt":1100,"hile":1101,"ument":1102,"Ġcon":1103,"lement":1104,"20":1105,"ref":1106,"Position":1107,"By":1108,"token":1109,"Ġreturn":1110,"uthor":1111,"LE":1112,"short":1113,"TokenStream":1114,"ternal":1115,"buf":1116,"of":1117,"Ġkey":1118,"arch":1119,"Ma":1120,"Point":1121,"erved":1122,"offset":1123,"its":1124,"break":1125,"Ġblocks":1126,"check":1127,"Address":1128,"Load":1129,"]\\":1130,"Account":1131,"ts":1132,"annel":1133,"Vo":1134,"++)":1135,"Dis":1136,"ations":1137,"Es":1138,"next":1139,"work":1140,"gment":1141,"zer":1142,"Ġsb":1143,"tocol":1144,"Time":1145,"abel":1146,"Command":1147,"ON":1148,"raw":1149,"++){":1150,"Ġup":1151,"Dire":1152,"lection":1153,"Commit":1154,"Action":1155,"\";}":1156,"Le":1157,"current":1158,"ud":1159,"Ġdata":1160,"ĠIllegalArgumentException":1161,"Ġrow":1162,"Client":1163,"ĠexecuteDescribe":1164,"vel":1165,"Connect":1166,"Iterator":1167,"ĠPut":1168,"(\"[":1169,"core":1170,"jj":1171,"Ġ)":1172,"erge":1173,"ader":1174,"other":1175,"LoadBalancer":1176,"mple":1177,"Ġid":1178,"Transit":1179,"32":1180,"Factory":1181,"lan":1182,"apac":1183,"ific":1184,"ĠModify":1185,"Protocol":1186,"Ġ>>":1187,"Ġdelete":1188,"Match":1189,"us":1190,"Ġ@":1191,"erialize":1192,"ore":1193,"Th":1194,"pla":1195,"Val":1196,"java":1197,"Ġthrow":1198,"input":1199,"Ġdouble":1200,"Mod":1201,"ĠĠĠĠĠĠĠĠ":1202,"ign":1203,"Document":1204,"apacity":1205,"Empty":1206,"redenti":1207,"gist":1208,"ence":1209,"pen":1210,"Ġinput":1211,"associate":1212,"Profile":1213,"SecurityGroup":1214,"Batch":1215,"Resource":1216,"Route":1217,"Ġinstance":1218,"own":1219,"eren":1220,"les":1221,"Double":1222,"clo":1223,"ili":1224,"Ġif":1225,"Channel":1226,"Resol":1227,"Ġpar":1228,"Author":1229,"Access":1230,"ĠsrcColumnIndex":1231,"With":1232,"sub":1233,"Ġk":1234,"Tags":1235,"ParameterGroup":1236,"AR":1237,"Stop":1238,"Check":1239,"Property":1240,"Ġnum":1241,"Ġfinal":1242,"while":1243,"Voice":1244,"TransitGateway":1245,"ĠexecuteGet":1246,"ility":1247,"par":1248,"Is":1249,"Target":1250,"oto":1251,"Session":1252,"Ġiter":1253,"201":1254,"Per":1255,"pre":1256,"aly":1257,"Ġg":1258,"ization":1259,"Aut":1260,"blocks":1261,"Ġput":1262,"Stack":1263,"Date":1264,"sing":1265,"Ġcol":1266,"Ġform":1267,"word":1268,"Ġ4":1269,"Ġch":1270,"ĠAdd":1271,"InputStream":1272,"Boo":1273,"];}":1274,"chor":1275,"Collection":1276,"Ġthrows":1277,"cr":1278,"ulti":1279,"Table":1280,"ight":1281,"Fle":1282,"Fleet":1283,"ationException":1284,"mail":1285,"bytes":1286,"Dep":1287,"gister":1288,"Modify":1289,"Run":1290,"Values":1291,"bu":1292,"last":1293,"Hash":1294,"riter":1295,"min":1296,"ĠArray":1297,"Parser":1298,"data":1299,"arg":1300,"pace":1301,"Email":1302,"Typ":1303,"Usage":1304,"VAL":1305,"ĠexecuteDelete":1306,"Not":1307,"Ġvalues":1308,"Ġ/":1309,"FA":1310,"tach":1311,"erence":1312,"):":1313,"Net":1314,"ĠV":1315,"();}}":1316,"valid":1317,"Ip":1318,"Pre":1319,"lear":1320,"Application":1321,"Connection":1322,"DE":1323,"eue":1324,"Ġbytes":1325,"entry":1326,"ctor":1327,"Ġmin":1328,"UR":1329,"ertific":1330,"ToHex":1331,"exp":1332,"Ġ<<":1333,"SheetIndex":1334,"flow":1335,"ges":1336,"Ix":1337,"Ġsheet":1338,"Associate":1339,"Ptg":1340,"Next":1341,"Sk":1342,"ties":1343,"Api":1344,"Pa":1345,"SI":1346,"Code":1347,"Ġarg":1348,"Model":1349,"Attach":1350,"posit":1351,"SE":1352,"Records":1353,"Pos":1354,"Network":1355,"Mem":1356,"ings":1357,"Ġsub":1358,"Ġtoken":1359,"ĠexecuteCreate":1360,"ification":1361,"alyzer":1362,"Contain":1363,"ates":1364,"req":1365,"ĠIOException":1366,"ĠsrcRowIndex":1367,"orted":1368,"Last":1369,"Used":1370,"ault":1371,"nown":1372,"');":1373,"ution":1374,"yment":1375,"Ġobj":1376,"loyment":1377,"ool":1378,"Ġ<=":1379,"And":1380,"Deployment":1381,"Function":1382,"ump":1383,"pository":1384,"Certific":1385,"ingle":1386,"ized":1387,"Vpn":1388,"sheet":1389,"Mode":1390,"ess":1391,"itor":1392,"ictionary":1393,"time":1394,"Reserved":1395,"ition":1396,"Book":1397,"atus":1398,"Resolver":1399,"ĠChar":1400,"Exp":1401,"Scal":1402,"Ġcount":1403,"CT":1404,"Ġres":1405,"Notific":1406,"Sched":1407,"Sp":1408,"Ġle":1409,"Ġlo":1410,"Ġnext":1411,"ĠexecuteList":1412,"Child":1413,"LittleEndianOutput":1414,"Clo":1415,"UT":1416,"ark":1417,"Perm":1418,"null":1419,"Ġ}":1420,"Ġnot":1421,"place":1422,"teger":1423,"Uni":1424,"ies":1425,"known":1426,"ability":1427,"clu":1428,"Ġinstanceof":1429,"07":1430,"Pattern":1431,"ĠDis":1432,"Ġ3":1433,"ission":1434,"QueryNode":1435,"format":1436,"Permission":1437,"hash":1438,"istener":1439,"Ho":1440,"PO":1441,"Pred":1442,"].":1443,"ĠStart":1444,"tive":1445,"00":1446,"ination":1447,"Ġbuf":1448,"Ġpre":1449,"All":1450,"ĠT":1451,"ee":1452,"ld":1453,"Change":1454,"face":1455,"ĠA":1456,"ams":1457,"Only":1458,"Connector":1459,"VoiceConnector":1460,"ush":1461,"Ġupdate":1462,"),":1463,"LO":1464,"Loc":1465,"back":1466,"ance":1467,"gion":1468,"ponent":1469,"acet":1470,"DBCluster":1471,"Escher":1472,"ill":1473,"Listener":1474,"ĠHSSF":1475,"query":1476,">();":1477,"net":1478,"ift":1479,"com":1480,"acter":1481,")).":1482,"fin":1483,"ffic":1484,"gg":1485,"first":1486,"Ġstate":1487,"tin":1488,"valu":1489,"Ġblock":1490,"Enable":1491,"Writer":1492,"block":1493,"Ġpro":1494,"WriteShort":1495,"Traffic":1496,"type":1497,"Ġpo":1498,"cei":1499,"UL":1500,"sum":1501,"ription":1502,"ecision":1503,"upp":1504,"Notification":1505,"IT":1506,"Ġ(_":1507,"Constan":1508,"RecordInputStream":1509,"Line":1510,"onitor":1511,"Ġobject":1512,"Auto":1513,"\";":1514,"Syn":1515,"lation":1516,"writeShort":1517,"Ġadd":1518,"sign":1519,"Ġterm":1520,"ink":1521,"Ġ\")":1522,";}}}":1523,"Scaling":1524,"Dump":1525,"Multi":1526,"HexDump":1527,"aw":1528,"ture":1529,"Unknown":1530,"Tag":1531,"cur":1532,"comp":1533,"Member":1534,"Unicode":1535,"alk":1536,"lags":1537,"Ġoutput":1538,"Utils":1539,"Interface":1540,"Equals":1541,"vi":1542,"Evaluate":1543,"Level":1544,"\").":1545,"We":1546,"xFF":1547,"Repository":1548,"orig":1549,"copy":1550,"gress":1551,"ules":1552,"ATN":1553,"Ġparameter":1554,"Ġremove":1555,"boolean":1556,"Detection":1557,"Schedule":1558,"Ġan":1559,"Default":1560,"Certificate":1561,"Game":1562,"Long":1563,"ĠRev":1564,"Subsc":1565,"Skill":1566,"Item":1567,"Label":1568,"lter":1569,"ustom":1570,"ated":1571,"ries":1572,"Subnet":1573,"equals":1574,"tic":1575,"Ġpath":1576,"Ġread":1577,"Terms":1578,"ByteBuffer":1579,"Associ":1580,"valuesOffset":1581,"Li":1582,"Len":1583,"path":1584,"rint":1585,"Max":1586,"Part":1587,"pro":1588,"sk":1589,"Ġcomp":1590,"Ġfirst":1591,"Constants":1592,"Ġu":1593,"Ġ8":1594,"sid":1595,"mport":1596,"uc":1597,"Ġtype":1598,"Repo":1599,"order":1600,"bool":1601,"redentials":1602,"Types":1603,"Ur":1604,"obj":1605,"ded":1606,"ĠMath":1607,"Url":1608,"Dat":1609,"catch":1610,"Ġfloat":1611,"Note":1612,"byteBuffer":1613,"ft":1614,"cogn":1615,"Datab":1616,"Freq":1617,"UM":1618,"wit":1619,"witch":1620,"ZE":1621,"elta":1622,"idth":1623,"Word":1624,"ateg":1625,"Sequ":1626,"Directory":1627,"Base":1628,"Remove":1629,"iff":1630,"()){":1631,"Ġcurrent":1632,"Ġmust":1633,"AN":1634,"Pool":1635,"UN":1636,"Ġposition":1637,"Ġdst":1638,"Ġdoc":1639,"blocksOffset":1640,"Merge":1641,"ĠexecuteUpdate":1642,"Cloud":1643,"--":1644,"AP":1645,"Setting":1646,"Prov":1647,"Valid":1648,"JGit":1649,"eg":1650,"str":1651,"lice":1652,"Enum":1653,"Ġpublic":1654,"ormal":1655,"Docs":1656,"eries":1657,"Photo":1658,"Database":1659,"Roo":1660,"Ġ);":1661,"ĠCell":1662,"():":1663,"Zone":1664,"cry":1665,"ns":1666,"ph":1667,"Ġcell":1668,"Ġlast":1669,"ative":1670,"ĠRemove":1671,"Works":1672,"cryption":1673,"Ġx":1674,"tect":1675,"Reset":1676,"ric":1677,"Facet":1678,"ron":1679,"ĠObject":1680,"assert":1681,"ĠBatch":1682,"Ġshort":1683,"SIZE":1684,"Ġparameters":1685,"rt":1686,"ider":1687,"Clone":1688,"ĠError":1689,"Association":1690,"Ġ6":1691,"],":1692,"switch":1693,"Relation":1694,"Ġfrom":1695,"ayload":1696,"Chars":1697,"Anchor":1698,"float":1699,"remaining":1700,"Ġcatch":1701,"Ġpt":1702,"tains":1703,"EN":1704,");_":1705,"ecode":1706,"Ġwrite":1707,"Segment":1708,"HT":1709,"Hand":1710,"record":1711,"ced":1712,"Str":1713,"11":1714,"Vault":1715,"src":1716,"ĠRead":1717,"Export":1718,"Header":1719,"chron":1720,"BytesUsed":1721,"Search":1722,"('\\":1723,"chronized":1724,"ĠRef":1725,"Status":1726,"Encryption":1727,"Ġcopy":1728,"ynchronized":1729,"Recei":1730,"ReadShort":1731,"FilterFactory":1732,"Metric":1733,"lements":1734,"Case":1735,"Custom":1736,"cre":1737,"ĠFile":1738,"Groups":1739,"Fields":1740,"DBInstance":1741,"bug":1742,"Relational":1743,"YTE":1744,"amBytesUsed":1745,"utable":1746,"Stem":1747,"nt":1748,"ĠArgumentException":1749,"log":1750,"App":1751,"Ġref":1752,"Ġhash":1753,"Bound":1754,"Pack":1755,"gr":1756,"he":1757,"Ġth":1758,"ĠUn":1759,"External":1760,"state":1761,"foreach":1762,"Assert":1763,"Ġshift":1764,"readShort":1765,"(\"[/":1766,"Ġiterations":1767,"Font":1768,"Open":1769,"Spec":1770,"cle":1771,"doc":1772,"Ġentry":1773,"Queue":1774,"lag":1775,"open":1776,"remove":1777,"ats":1778,"Execution":1779,"vail":1780,"Cells":1781,"pected":1782,"Debug":1783,"Compare":1784,"closing":1785,"Capacity":1786,"Flow":1787,"Serv":1788,"eer":1789,"imple":1790,"Ġq":1791,"Sequence":1792,"Supp":1793,"true":1794,"BytesRef":1795,"Local":1796,"yle":1797,"enclosing":1798,"lob":1799,"ribution":1800,"istribution":1801,"assword":1802,"Limit":1803,"RelationalDatabase":1804,"PS":1805,"ail":1806,"bs":1807,"Formatting":1808,"valuate":1809,"Avail":1810,"has":1811,"ject":1812,"ĠG":1813,"Phone":1814,"ancel":1815,"\"){":1816,"UShort":1817,"gh":1818,"Ġy":1819,"Ġremaining":1820,"Boolean":1821,"Container":1822,"Bits":1823,"Public":1824,"TY":1825,"Tri":1826,"eed":1827,"stener":1828,"Ġat":1829,"Reference":1830,"Arrays":1831,"Ġlimit":1832,"Bit":1833,"CO":1834,"Det":1835,"Monitor":1836,"Ġac":1837,"list":1838,"ĠIndex":1839,"original":1840,"ema":1841,"entries":1842,"ĠNGit":1843,"IOException":1844,"ish":1845,"HTT":1846,"':":1847,"Sc":1848,"ycle":1849,"ĠStop":1850,"Ġequals":1851,"ĠBytes":1852,"Ġrule":1853,"Provider":1854,"Room":1855,"BYTE":1856,"UE":1857,"ProtocolType":1858,"ULT":1859,"HTTPS":1860,"Send":1861,"ier":1862,"ĠTo":1863,"erver":1864,"Remaining":1865,"filter":1866,"Ġjj":1867,"ConfigurationSet":1868,"VpcEndpoint":1869,"Pri":1870,"vice":1871,"Ġold":1872,"round":1873,"JGitText":1874,"lobal":1875,"Score":1876,"bit":1877,"line":1878,"Schema":1879,"Lex":1880,"sic":1881,"Ġcl":1882,"tax":1883,"Compar":1884,"Rest":1885,"Virtual":1886,"isEmpty":1887,"Ġ++":1888,"FAULT":1889,"ĠErrorEval":1890,"NUM":1891,"Peer":1892,"ms":1893,"EvaluationException":1894,"RangeAddress":1895,"PhoneNumber":1896,"La":1897,"Override":1898,"table":1899,"use":1900,"urn":1901,"Process":1902,"Operand":1903,"Ġtext":1904,"liver":1905,"pot":1906,"GroupRequest":1907,"Direct":1908,")((":1909,"AM":1910,"AX":1911,"Qual":1912,"Component":1913,"uffix":1914,"ĠDisassociate":1915,"Lif":1916,"Raw":1917,"cept":1918,"Ġ{_":1919,"ecycle":1920,"Conta":1921,"Deliver":1922,"Ġevaluate":1923,"Acti":1924,"ĠRun":1925,"ĠBytesRef":1926,"Lifecycle":1927,"Contact":1928,"/[":1929,"BJ":1930,"Blocks":1931,"Sec":1932,"arraycopy":1933,"Ord":1934,"number":1935,"Rules":1936,"error":1937,"stra":1938,"shape":1939,"default":1940,"old":1941,"cedence":1942,"Modif":1943,"Offer":1944,"OBJ":1945,"ĠEvaluate":1946,"stings":1947,"Report":1948,"ression":1949,"Workbook":1950,"Ġhe":1951,"cognizer":1952,"Current":1953,"md":1954,"inary":1955,"Shape":1956,"Color":1957,"ĠByte":1958,"CK":1959,"Find":1960,"Global":1961,"++;":1962,"ĠEs":1963,"Ġformat":1964,"ĠTerm":1965,"ĠAssociate":1966,"Analyzer":1967,"ĠArrayList":1968,"tinue":1969,"PE":1970,"base":1971,"GetType":1972,"ĠEquals":1973,"OutOf":1974,"New":1975,"tep":1976,"ources":1977,"Revision":1978,"VALID":1979,"VALUE":1980,"cate":1981,"Ġbu":1982,"ume":1983,"Ġ\");":1984,"Ġstr":1985,"Device":1986,"Prox":1987,"Ġrecord":1988,"box":1989,"TreeFilter":1990,"Spot":1991,"sted":1992,"otal":1993,");}}}":1994,"ClientVpn":1995,"Attachment":1996,"Subscription":1997,"API":1998,"Service":1999,"FI":2000,"Min":2001,"ĠSh":2002,"ĠTokenStream":2003,"ingArray":2004,"rase":2005,"Ġcom":2006,"URI":2007,"Call":2008,"OF":2009,"ctx":2010,"ands":2011,"INVALID":2012,"Receipt":2013,"CE":2014,"Sign":2015,"Replication":2016,"older":2017,"Estim":2018,"match":2019,"ward":2020,"ĠH":2021,"lex":2022,"Ġserialize":2023,"output":2024,"redential":2025,"clude":2026,"ĠEscher":2027,"link":2028,"ound":2029,"rap":2030,"zz":2031,"Proxy":2032,"(@":2033,"Back":2034,"Distribution":2035,"Import":2036,"Ġstop":2037,"Keys":2038,"Detector":2039,"Ġcolumn":2040,"Ġformula":2041,"Gen":2042,"SH":2043,"Single":2044,"mod":2045,"ĠToken":2046,"reg":2047,"repo":2048,"Inte":2049,"Syntax":2050,"Agg":2051,"Vis":2052,"act":2053,"ker":2054,"estination":2055,"Workflow":2056,"Authorization":2057,"POST":2058,"Ġclone":2059,"Area":2060,"map":2061,"ĠRecord":2062,"Ali":2063,"Fra":2064,"Mo":2065,"]);":2066,"lative":2067,"ĠParse":2068,"ingJob":2069,"Idx":2070,"ĠSerialize":2071,"ĠotherBuffer":2072,"Ġ>>>":2073,"RouteTable":2074,"Pair":2075,"DetectionJob":2076,"Peering":2077,"TH":2078,"ret":2079,"Ġmatch":2080,"Ġ(!(":2081,"Parent":2082,"GE":2083,"ym":2084,"irror":2085,"ĠSe":2086,"ptr":2087,"Disassociate":2088,"OnlyBuffer":2089,"BYTES":2090,"Span":2091,"Prediction":2092,"Workspace":2093,"cation":2094,"false":2095,"oper":2096,"Offsets":2097,"board":2098,"eek":2099,"sWith":2100,"getName":2101,"ĠIs":2102,"Track":2103,"ErrorEval":2104,"Hosted":2105,"gions":2106,"CH":2107,"Mirror":2108,"Server":2109,"group":2110,"pattern":2111,"Ġ\",":2112,"AutoScaling":2113,"compare":2114,"openAPI":2115,"Credentials":2116,"ied":2117,"ĠCon":2118,"stream":2119,"parent":2120,"OperationException":2121,"ILittleEndianOutput":2122,"ĠSt":2123,"GroupResponse":2124,"ORD":2125,"Handl":2126,"Float":2127,"HIT":2128,"Mutable":2129,"gen":2130,"lish":2131,"amUsage":2132,"Ġval":2133,"Availability":2134,"Estimator":2135,"amUsageEstimator":2136,"Cam":2137,"Section":2138,"ĠNumber":2139,"Ġoriginal":2140,"register":2141,"arpen":2142,"ison":2143,"idx":2144,"Policies":2145,"Transition":2146,"paign":2147,"Assess":2148,"Alar":2149,"Points":2150,"TrafficMirror":2151,"GameSession":2152,"VirtualInterface":2153,"Qualification":2154,"Campaign":2155,"Assessment":2156,"Vol":2157,"vio":2158,"Ġ[":2159,"Ġen":2160,"ript":2161,"SheetName":2162,"Prefix":2163,"itional":2164,"vious":2165,"vate":2166,"sive":2167,"Upto":2168,"Ġchild":2169,"ght":2170,"filters":2171,"AD":2172,"ECT":2173,"ure":2174,"queue":2175,"Integer":2176,"Upload":2177,"mplem":2178,"ReservedInstances":2179,"istance":2180,"temp":2181,"Ġoff":2182,"adata":2183,"Ġsource":2184,"irectory":2185,"PerValue":2186,"Implem":2187,"af":2188,"sor":2189,"ented":2190,"rig":2191,"reserved":2192,"Ġlex":2193,"Implemented":2194,"64":2195,"Ġun":2196,"ethod":2197,"issing":2198,"Enti":2199,"Progress":2200,"ĠSend":2201,"Streaming":2202,"TER":2203,"tokens":2204,"ĠObjectId":2205,"eric":2206,"mak":2207,"mask":2208,"Simple":2209,"erator":2210,"NameRecord":2211,"Interval":2212,"=\").":2213,"Activ":2214,"create":2215,"font":2216,"mark":2217,"Ġquery":2218,"ulture":2219,"Ġback":2220,"Ġfor":2221,"Evaluation":2222,"ĠRamUsageEstimator":2223,"06":2224,"Dash":2225,"Null":2226,"Over":2227,"VE":2228,"ping":2229,"file":2230,"Tokens":2231,"icate":2232,"Journ":2233,"Metadata":2234,"2016":2235,"2017":2236,"timeException":2237,"placement":2238,"Notebook":2239,"Monitoring":2240,"Dashboard":2241,"pic":2242,"ĠJ":2243,"ĠField":2244,"ĠClone":2245,"Ġ(\"":2246,"vert":2247,"straint":2248,"regate":2249,"12":2250,"Destination":2251,"Orig":2252,"Ġal":2253,"ublish":2254,"Invalid":2255,"Style":2256,"Ġsynchronized":2257,"lang":2258,"UTF":2259,"flags":2260,"ired":2261,"print":2262,"son":2263,"ĠReset":2264,"Operation":2265,"MethodType":2266,"Ġiterator":2267,"ĠRuntimeException":2268,"Uri":2269,"lush":2270,"Ġall":2271,"unc":2272,"setMethod":2273,"Fill":2274,"Ġdefault":2275,"Supported":2276,"Ġ%":2277,"rec":2278,"Ġof":2279,"getClass":2280,"ody":2281,"odes":2282,"Ġret":2283,"ĠMethod":2284,"LOCK":2285,"OBJECT":2286,"ĠMethodType":2287,"Impl":2288,"Pla":2289,"ds":2290,"ground":2291,"iti":2292,"used":2293,"Ġraw":2294,"uld":2295,"fier":2296,"Character":2297,"Face":2298,"Identifier":2299,"Detect":2300,"Ġnumber":2301,"Offering":2302,"Activity":2303,"IO":2304,"ML":2305,"Ġappend":2306,"ĠQuery":2307,"Ġ\"'":2308,"Defin":2309,"ector":2310,"IDictionary":2311,"Order":2312,"UriPattern":2313,"NO":2314,"clear":2315,"ding":2316,"ĠOperand":2317,"()).":2318,"Encode":2319,"ached":2320,"flowException":2321,"crement":2322,"Trial":2323,"ĠOperandResolver":2324,"16":2325,"ditional":2326,"erAction":2327,"Inv":2328,"Att":2329,"Files":2330,"Ġfields":2331,"Evaluator":2332,"FormulaString":2333,"itsPerValue":2334,"Thread":2335,"cloud":2336,"Ordinal":2337,"ImplementedException":2338,"Arn":2339,"part":2340,"user":2341,"alth":2342,"ists":2343,"resh":2344,"Apns":2345,"Ġreader":2346,"ternSheet":2347,"Dataset":2348,"Namespace":2349,"ParseTree":2350,"ConnectGateway":2351,"TrafficPolicy":2352,"egin":2353,"DirectConnectGateway":2354,"ReceiptRule":2355,"Aggregate":2356,"NotebookInstance":2357,"ION":2358,"Walk":2359,"av":2360,"ging":2361,"Ġord":2362,"ĠInteger":2363,"Ġsup":2364,"Any":2365,"Callable":2366,"ditionalFormatting":2367,"NG":2368,"]);}":2369,"dQuery":2370,"mer":2371,"qual":2372,"ene":2373,"enten":2374,"fill":2375,"unch":2376,"ressed":2377,"fields":2378,"SizeOf":2379,"ĠsrcOffset":2380,"ConfigurationRequest":2381,"Ġcontains":2382,"oreCase":2383,"Ġprefix":2384,"Scheduled":2385,"ucene":2386,"Bounds":2387,"Detail":2388,"Launch":2389,"MP":2390,"Sort":2391,"capacity":2392,"ĠEx":2393,"archer":2394,"ending":2395,"ĠDouble":2396,"Ġ16":2397,"Accept":2398,"Ġptr":2399,"Alarm":2400,"==":2401,"TA":2402,"ote":2403,"GroupName":2404,"ConfigurationResponse":2405,"NotImplementedException":2406,"..":2407,"Decision":2408,"ages":2409,"iable":2410,"ner":2411,"ally":2412,"utf":2413,"Ġcmp":2414,"Ġmessage":2415,"Health":2416,"Collections":2417,"ĠminSize":2418,"ĠRevFilter":2419,"Be":2420,"Op":2421,"Pip":2422,"mt":2423,"nect":2424,"okup":2425,"Ġ10":2426,"tag":2427,"PolicyRequest":2428,"Ptr":2429,"Disk":2430,"Ġgroup":2431,"ĠvaluesOffset":2432,"ĠdstOffset":2433,"entence":2434,")(":2435,"Ed":2436,"Math":2437,"listener":2438,"StringUtil":2439,"upto":2440,"Conf":2441,"ĠSp":2442,"acked":2443,"Numeric":2444,"KeyId":2445,"Host":2446,"Ġanchor":2447,"CloudPhoto":2448,"photo":2449,"Alias":2450,"Handler":2451,"Volume":2452,"Definition":2453,"cloudphoto":2454,"Element":2455,"ek":2456,"from":2457,"ĠException":2458,"esRequest":2459,"etach":2460,"Rec":2461,"cement":2462,"ĠInvalid":2463,"idr":2464,"CharSequence":2465,"legate":2466,"Ġ'\\":2467,"annot":2468,"Logging":2469,"Typed":2470,"IList":2471,"du":2472,"ib":2473,"ial":2474,"Ġoper":2475,"Ids":2476,"Ġrec":2477,"terms":2478,"lank":2479,"parse":2480,"Flag":2481,"Port":2482,"Publish":2483,"ared":2484,"gration":2485,"ould":2486,"source":2487,"sBy":2488,"queries":2489,"root":2490,"Ġta":2491,"avail":2492,"Assign":2493,"FieldLevel":2494,"ING":2495,"valueOf":2496,"OutputStream":2497,"AttributesRequest":2498,"TagsFor":2499,"params":2500,"GameServer":2501,"Comparison":2502,"Integration":2503,"Invit":2504,"TypedLink":2505,"FieldLevelEncryption":2506,"Fr":2507,"cmp":2508,"tg":2509,"Intern":2510,"Constraint":2511,"Ġstream":2512,"cket":2513,"HashMap":2514,"Ġcompare":2515,"ĠSearch":2516,"Dir":2517,"Man":2518,"Step":2519,"Vector":2520,"bol":2521,"site":2522,"Ġ\"\\":2523,"tent":2524,"Termination":2525,"ClusterSnapshot":2526,"ĠblocksOffset":2527,"Ġidx":2528,"ymbol":2529,"OnlyBufferException":2530,"If":2531,"Payload":2532,"alet":2533,"Ġcr":2534,"Enco":2535,"reset":2536,"assic":2537,"Classic":2538,"ĠNumberEval":2539,"alette":2540,"Dec":2541,"tx":2542,"Ġ){":2543,"escher":2544,"etGateway":2545,"Ġvals":2546,"ConditionalFormatting":2547,"Ġpattern":2548,"ĠRegister":2549,"Verification":2550,"Autom":2551,"sume":2552,"skip":2553,"ategy":2554,"ntk":2555,"InternetGateway":2556,"<>();":2557,"ROR":2558,"ang":2559,"external":2560,"continue":2561,"DEFAULT":2562,"ĠcolumnIndex":2563,"WorkflowExecution":2564,"10":2565,"BLOCK":2566,"bcore":2567,"version":2568,"Ġdis":2569,"fieldName":2570,"ĠStringComparison":2571,"Propos":2572,"ternSheetIndex":2573,"Mapping":2574,"RuleContext":2575,"Allo":2576,"ĠrowIndex":2577,"Cached":2578,"Distance":2579,"Esc":2580,"Password":2581,"Ġit":2582,"Ġver":2583,"child":2584,"ĠInt":2585,"Confi":2586,"Ġexp":2587,"ĠSub":2588,"Lock":2589,"tribute":2590,"ĠNB":2591,"INT":2592,"boot":2593,"Ġreset":2594,"Predicate":2595,"Ġ\")\";}":2596,"Ġbuild":2597,"Cidr":2598,"RO":2599,"Zon":2600,"ĠEnable":2601,"Internal":2602,"Ġvault":2603,"Ġfunction":2604,"olution":2605,"WriteInt":2606,"connect":2607,"iant":2608,"InstancesRequest":2609,"Role":2610,"ighted":2611,"Runtime":2612,"ĠsheetIndex":2613,"Modific":2614,"Culture":2615,"Full":2616,"Ġas":2617,"led":2618,"sitive":2619,"Ġdate":2620,"oop":2621,"ables":2622,"Ġpa":2623,"chars":2624,"Contains":2625,"Expression":2626,"Words":2627,"Ġthe":2628,"CHAR":2629,"Plan":2630,"tal":2631,"err":2632,"expected":2633,"Ġ+\"":2634,"IndexOf":2635,"Ġdb":2636,"WriteByte":2637,"color":2638,"VpcPeering":2639,"IdentityPool":2640,"clone":2641,"Mail":2642,"UsagePlan":2643,"expentries":2644,"ResolverRule":2645,"cursor":2646,"LocalGateway":2647,"Delivery":2648,"MPTY":2649,"ATE":2650,"Option":2651,"Width":2652,"ia":2653,"ved":2654,"ĠDE":2655,"++;}":2656,"ĠĠĠĠĠĠĠ":2657,"Ġword":2658,"contains":2659,"uccess":2660,"LD":2661,"sg":2662,"ĠTreeFilter":2663,"Protect":2664,"sions":2665,"DataSource":2666,"KeyPair":2667,"Ġhas":2668,"indow":2669,"Ġcontext":2670,"SET":2671,"clusive":2672,"Pipel":2673,":\"":2674,"Bund":2675,"Flags":2676,"Nodes":2677,"fter":2678,"tra":2679,"antic":2680,"setProtocol":2681,"ĠSize":2682,"StateException":2683,"RevFilter":2684,"FirstRow":2685,"LENG":2686,"Boost":2687,"Hashtable":2688,"HostedZone":2689,"anticContext":2690,"LENGTH":2691,"Cancel":2692,"sp":2693,"Ġ5":2694,"ĠProtocolType":2695,"utor":2696,"ĠInter":2697,"Ġfind":2698,"Shingle":2699,"Ġshape":2700,"Ġfile":2701,"ĠIllegalStateException":2702,"uses":2703,"Web":2704,"ATNConfig":2705,"ĠvaultName":2706,"Categ":2707,"Serialize":2708,"cp":2709,"ho":2710,"rule":2711,"esResponse":2712,"inate":2713,"Ġclear":2714,"Ġ-=":2715,"Comment":2716,"range":2717,"FileSystem":2718,"Phrase":2719,"ĠDisable":2720,"ReplicationGroup":2721,"dic":2722,"uri":2723,"erInstance":2724,"lem":2725,"ĠDetach":2726,"unused":2727,"istory":2728,"Ġlink":2729,"mote":2730,"readUShort":2731,"config":2732,"Pointer":2733,"Changed":2734,"Ġuser":2735,"Strategy":2736,"ĠSharpen":2737,"Placement":2738,"ShingleSize":2739,"Credential":2740,"DFA":2741,"IM":2742,"dst":2743,"dec":2744,"Ġerror":2745,"GetValue":2746,"Ġsnapshot":2747,"IndexOutOf":2748,"ĠBoo":2749,"Ġwork":2750,"Verif":2751,"Ġlibcore":2752,"omin":2753,"writeInt":2754,"iterator":2755,"shortToHex":2756,"2018":2757,"Enabled":2758,"HealthCheck":2759,"Ġparent":2760,"Desc":2761,"Low":2762,"Su":2763,"]\");":2764,"stic":2765,"Increment":2766,"letion":2767,"aton":2768,"();_":2769,"Ġmark":2770,"ReadUShort":2771,"countId":2772,"cond":2773,"ĠLong":2774,"ONE":2775,"prefix":2776,"URL":2777,"TYPE":2778,"making":2779,"itial":2780,"Cal":2781,"Draw":2782,"LL":2783,"Sid":2784,"ĠConstants":2785,"ĠbitsPerValue":2786,"chase":2787,"Ġdo":2788,"urchase":2789,"ĠDescribeDB":2790,"Compo":2791,"mode":2792,"Transport":2793,"class":2794,"ERROR":2795,"Properties":2796,"parator":2797,"Ġlocation":2798,"backingArray":2799,"blockSize":2800,"Ġanalyzer":2801,"head":2802,"Invitation":2803,"Found":2804,"Hum":2805,"IP":2806,"Old":2807,"Solution":2808,"db":2809,"fer":2810,"gor":2811,"total":2812,"uint":2813,"Register":2814,"ship":2815,"Statu":2816,"change":2817,"InstanceRequest":2818,"Ġlabel":2819,"ĠĠĠĠĠ":2820,"ĠMAX":2821,"CellRangeAddress":2822,"CharBuffer":2823,"MapClass":2824,"Workte":2825,"Profiles":2826,"AttributesResponse":2827,"Left":2828,"Matchmaking":2829,"DocumentClass":2830,"substring":2831,"TransitGatewayRouteTable":2832,"build":2833,"EmailIdentity":2834,"NetworkInterface":2835,"Membership":2836,"Journey":2837,"Assignment":2838,"ClassicLink":2839,"DeliveryStream":2840,"Human":2841,"gorith":2842,"DO":2843,"History":2844,"dir":2845,"sm":2846,"ĠK":2847,"ĠCopy":2848,"ĠFormula":2849,"ĠAttach":2850,"eration":2851,"estore":2852,"Ġ\"/":2853,"Ġsval":2854,"Ġdecision":2855,"Ġmodify":2856,"writeByte":2857,"Ġcommit":2858,"ĠSizeOf":2859,"Folder":2860,"Push":2861,"Slice":2862,"bb":2863,"rndQuery":2864,"Exten":2865,"Ġcapacity":2866,"Args":2867,"ĠbyteCount":2868,"JobFlow":2869,"PolicyResponse":2870,"Transfer":2871,"AnyObjectId":2872,"ĠInvalidOperationException":2873,"Proposal":2874,"Allocate":2875,"+\"":2876,"Ret":2877,"Ren":2878,"]/":2879,"Ġap":2880,"ĠWrite":2881,"Ġ\"]":2882,"Ġline":2883,"Ġrepo":2884,"Ġ12":2885,"toHex":2886,"Ġfill":2887,"BitSet":2888,"URIish":2889,"gorithm":2890,"ke":2891,"ratch":2892,"Ġload":2893,"Ġ=\").":2894,"Rect":2895,"Stats":2896,"Ġslice":2897,"Ġext":2898,"ĠexecuteModify":2899,"GroupsRequest":2900,"lauses":2901,"Worker":2902,"ĠRaw":2903,"scratch":2904,"ĠCancel":2905,"MessageFormat":2906,"Ġchars":2907,"zero":2908,"argin":2909,"Ġterms":2910,"ĠCellRangeAddress":2911,"records":2912,"grbit":2913,"ĠParseException":2914,"queueUrl":2915,":{":2916,">();}":2917,"BLE":2918,"Clear":2919,"UByte":2920,"sq":2921,"ĠBuffer":2922,"lector":2923,"Ġ(@":2924,"verse":2925,"Ġdelta":2926,"CharArray":2927,"imal":2928,"Substring":2929,"gnoreCase":2930,"ĠblockSize":2931,"operands":2932,"dicated":2933,"AS":2934,"Body":2935,"Diff":2936,"Elements":2937,"MAX":2938,"sRef":2939,"vir":2940,"vision":2941,"we":2942,"onment":2943,"Init":2944,"lease":2945,"Ġinter":2946,"Eng":2947,"variant":2948,"Ġpart":2949,"ValueSource":2950,"Ġmap":2951,"Tokenizer":2952,"ĠIList":2953,"ĠsrcCell":2954,"iled":2955,"workbook":2956,"Skip":2957,"Apply":2958,"ĠruleIndex":2959,"Processor":2960,"Zones":2961,"Lower":2962,"Workteam":2963,"vironment":2964,"Break":2965,"PID":2966,"cache":2967,"kip":2968,"synchronized":2969,"Ġon":2970,"ant":2971,"anges":2972,"rim":2973,"illi":2974,"rowIndex":2975,"ĠexecutePut":2976,"Ġlistener":2977,"ClientAnchor":2978,"comm":2979,"Configs":2980,"BO":2981,"DI":2982,"EOF":2983,"LA":2984,"PUT":2985,"cast":2986,"mis":2987,"pg":2988,"sFor":2989,"tl":2990,"target":2991,"instance":2992,"riptions":2993,"Ġ\"<":2994,"Ident":2995,"ReadInt":2996,"ĠbyteBuffer":2997,"IDMap":2998,"paces":2999},"merges":["e s","r e","o n","e r","i n","t i",") ;","a l","Ġ =","t e","ti on","q u","es t","l i","qu est","a r","s t","e t","e n","u b","t u","R e","li c","I n","o r","ub lic","p ublic","s e","p tion","r n","re tu","retu rn","); }","l e","a n","re quest","in g","c e","R es","t h",") {","s h","Ġ n","Ġ {","ption s","S t","e x","a te","r i","Ġ (","Re quest","e c","Ġ o","in t","al l","p on","r ing","Res pon","Respon se","all er","ar sh","r o","arsh aller","u l","e w","; }","Ġ b","a m","i f","a t","Ġ v","Ġn ew","o k","i s","e l","c h","u t","en t","St ring","st an","f i","( )","E x","f f","In stan","Instan ce","U n","i t","C o","( );","l o","d e","Ġ In","al u","ec u","G et","d ex","en d","g et","a p","ri b","Ġ D","i r","t er","r a","u n","s i","o ptions","v ok","vok e","u m","Ġ +","Ġ request","Un m","i l","M arshaller","ĠIn voke","Ġo ptions","Request Marshaller","Response Unm","ResponseUnm arshaller","s et","am e","ul t","Ġ \"","a d","i st","c o","i d","Ġ 0","es c","th is","Ġ Ġ","u p","tu al","rib e","ir tual","esc ribe","C on","p end","Ġ int","Ġv irtual","or d","a tion","( \"","Ġ st","ff er","L ist","Ġ s","c k","u ffer","re ate","alu e","p o","In dex","z e","el d","Ġ in","m a","f o","ro w","en g","le te","eng th","ul l","Ġ c","v er","D e","ent Ex","N ame","Ġ f","g e","Ġ d","Ġ t","o o","c ord","C reate","ce ption","m p","Ġ ex","E n","a b","or t","ec t","Ġ Get","r es","C li","a s","Ġ= =","A p","( );}","O ptions","y te","Res ult","S h","Ġn ull","Ġ i","fo re","p ut","Ġb e","T o","Re cord","v ar","b j","ff set","un t","I d","ecu tion","> (","fi eld","A r","ra y","Ġv o","ecu te","ar t","Ġvo id","th row","Cli entEx","e d","[ ]","Ġbe fore","Ġex ecute","ĠInvoke Options","ClientEx ecution","Ġbefore ClientExecution","U p","E v","i ze","o c","d ate","ro up","C h","y p","u r","or m","Ġ String","( ){","Ġ <","Ġ p","S et","o t","g s","Ġ get","c t","ĠD escribe","Ex ception","a se","o d","lo ck","il d","G roup","P ro","bj ect","Ġ l","ok en","ver ri","verri de","P o","V alue","ap pend","Up date","t y","m ent","at a","Ap pend","Ġ re","Ġo verride","c tion","yp e","o w","ex t","Ġ m","ĠD e","Ġ !",") .","Ġ >","s er","B u","Q u","Ġ S","ab le","v e","re am","e y","Ġ -","at ch","si on","c es","F i","r y","Ġ Create","fi g","C l","Ġ List","B uffer","Ġ! =","Ġ 1","+ +","L ength","ĠDe lete","A t","Co unt","a ti","Bu ild","st ring","Re f","Con fig","re n","St ream","\" );","t es","y tes","T ype","ri te","Ar ray","S ize","t o","on g","er y","Co l","A d","T oken","e et","u e","v a","l a","Ġ ar","Ġb oo","D escribe","O ffset","Ġ &","t a","p er","at or","Build er","Re ad","Ġ I","\" ,","O bject","te m","b uffer","u st","in al","P ar","F orm","l ength","ĠĠ ĠĠ","Ġ this","Ad d","Ġ e","F il","o ut","De lete","a ge","s Request","Ev al","f or","i g","u le","er m","Sh ort","Ġ _","m it","po s","Qu ery","En d","ati c","o ub","oub le","si tion","Ġ co","Ġ M","ter n","ma in","al se","a va","r c","a y","el se","N o","a th","b er","o ur","as s","Ġ j","el l","Ġst atic","or y","an d","R ow","a c","C ell","Ġst ring","D ata","le an","a ck","or k","Ch ar","al s","res ult","ch ar","alu es","b yte","th er","si ze","i c","o l","s Response","A c","Fil ter","re d","a ch","Co m","Ġf alse","te x","A s","Ġ P","To String","ren t","L o","ra tion","tex t","N um","Ġ Update","t ry","our ce","m o","en ti",");} }","t rib",";} }","r an","ti l","v al","Fi eld","Ġ B","Ġt o","te d","te n","T erm","r ue","l l","K ey","O f","Ġin dex","Ġ r","Ġ w","s age","Ġs rc","Ġv alue","od if","Ġ Re","A n","u te","um n","u ration","St art","In t","w ay","Cl ust","Clust er","ro m","a sh","y s","Config uration","r or","Sh eet","Form at","Ġ |","Ġ :","Ar g","G ate","Gate way","J o","on e","] ;","At trib","Ġo ffset","T ext","Ġ sh","Po lic","f a","p y","s b","ma x","lock s","V er","in dex","sh ot","M ap","V p","n ap","ys tem","oc i","nap shot","Ġ E","i z","D B","St ate","an ge","B yte","Ġt rue","R ule","Ġ li","B ytes","re e","O ut","fi c","i o","() .","D oc",") )","Ġst art","u f","et er","re ad","am eter","W rite","Arg um","c ase","ar gs","b o","Ġ& &","i m","o p","mo ve","Ġj ava","Ġo ther","S ub","\" );}","p t","Ġb yte","un d","M et","S e","entEx ception","T ran","i on","I D","Jo b","co unt","Ġb uffer","n ew","p a","Fi le","Num ber","Polic y","k ey","er i","qu als","Ġo ut","Ġ field","ct ory","Ġboo l","odif y","ur rent","Argum entException","ad d","Col umn","Ġ N","Ġboo lean","W ork","po sition","ec k","n ame","S napshot","Ġ is","a st","re a","() )","I N","v alue","L in","se d","co l","c on","i an","f inal","er v","B lock","lo w","le g","Con n","Ver sion","ces s","ach e","res s","es sage","o main","F a","Ġ de","As s","F or","Value Eval","i ce","Tran s","Ġ result","it y","H ex","Ġ h","Ġar gs","Ġ| |","oci ate","Ġl ong","Id enti","F rom","S S","() );}","( (","o m","Ġ a","T E","in d","r ror","mp l","U ser","i re","In put","ar y","En try","T a","Ev alu","ul a","T ree","() );","Ġ( !","Co mp","Instan ces","w rite","Ġ> =","as k","am es","s up","ĠĠ Ġ","Ġc reate","ar ray","Ġl en","ter m","o de","D omain","ch er","ĠString Builder","g n","o bject","Ġ end","h od","Vp c","Ġ 2","Ġ R","po int","l ong","p lic","String Builder","U til","i p","ti fic","t le","No de","lo at","Par ameter","b oo","s Result","Ġ ?","Ġ+ =","A L","Ġ( (","v alues","Ġb ase","Ev ent","Out put","Ġ '","Ġ fi","L it","g er","End ian","tle Endian","Lit tleEndian","p ort","fa ult","y n","stan ce","Ġd escribe","Cl ass","sup er","Ġ set","s c","O n","main ing","R o","s RequestMarshaller","s ResponseUnmarshaller","is ion","T ask","Ġ *","C ache","In fo","Ġn ame","plic ation","ar d","at tern","ut es","R E","an n","( _","I ma","d ouble","i th","n io","ta in","Ġ C","ig h","rea k","B o","fi x","ap e","Ġ Set","Ġ else","P h","i le","co de","lo ad","leg al","++ ]","eri al","SS F","ce ll","T e","In ter","= \"","l legal","H SSF","){ _","ser t","End point","; _","R ange","on t","O per","G it","Ġ F","Identi ty",") ){","S T","ti m","A l","N ames","c er","Ġ pos","M essage","P ath",") );}","De te","Object Id","f orm","Ġ .","O R","Co py","to String","Ġli st","Met hod","Te mpl","Lo g","Ġto String","al an","S ch","A T","Con text","Ġar ray","ĠI llegal","Ġ size","Pro fi","Ġ ToString","ar get","c l",") );","c al","Ima ge","i ction","r st","() ,","un ction","e m","H e","l y","Read er","u til","Attrib utes","B alan","l en","p ec","O Exception","in e","d er","Re v","Ġ char","ri ty","ĠS ystem","bo ok","(\" \\","Attrib ute","ec tion","Com m","Templ ate","O r","ter ator","iz er","Lin k","Column Index","n um","P ut","T ra","a re",". _","Balan cer","E rror","Ġ\" ).","T im","t ing","li mit","( '","E R","u th","Ġ se","Par se","ir st","F F","Ġ ValueEval","it er","S ecu","Form ula","ten er","Ġ L","a tu","Ġl ength","mp ty","Row Index","Secu rity","S ource","es sion","st art","Ġ max","Pro per","S ystem","F irst","P t","h ile","um ent","Ġc on","le ment","2 0","re f","Po sition","B y","t oken","Ġ return","uth or","L E","sh ort","Token Stream","tern al","b uf","o f","Ġ key","ar ch","M a","Po int","erv ed","o ffset","it s","b reak","Ġb locks","ch eck","Add ress","Lo ad","] \\","Ac count","t s","ann el","V o","++ )","D is","ation s","E s","n ext","w ork","g ment","z er","Ġs b","to col","Tim e","ab el","Comm and","O N","ra w","++ ){","Ġ up","D ire","le ction","Com mit","A ction","\" ;}","L e","c urrent","u d","Ġd ata","ĠIllegal ArgumentException","Ġ row","Cli ent","Ġexecute Describe","v el","Conn ect","I terator","ĠP ut","(\" [","co re","j j","Ġ )","er ge","ad er","o ther","Load Balancer","mp le","Ġ id","Trans it","3 2","Fa ctory","l an","ap ac","if ic","ĠM odify","Pro tocol","Ġ> >","Ġde lete","M atch","u s","Ġ @","erial ize","o re","T h","p la","V al","j ava","Ġ throw","in put","Ġd ouble","M od","ĠĠĠĠ ĠĠĠĠ","ig n","Doc ument","apac ity","E mpty","red enti","g ist","en ce","p en","Ġin put","ass ociate","Profi le","Security Group","B atch","Res ource","Ro ute","Ġin stance","ow n","e ren","l es","D ouble","c lo","i li","Ġ if","Ch annel","Res ol","Ġp ar","A uthor","Ac cess","Ġsrc ColumnIndex","W ith","s ub","Ġ k","Ta gs","Parameter Group","A R","St op","Ch eck","Proper ty","Ġn um","Ġf inal","w hile","Vo ice","Transit Gateway","Ġexecute Get","ili ty","p ar","I s","T arget","ot o","S ession","Ġ iter","20 1","P er","p re","al y","Ġ g","iz ation","A ut","b locks","Ġ put","St ack","D ate","s ing","Ġco l","Ġf orm","w ord","Ġ 4","Ġ ch","Ġ Add","Input Stream","B oo","] ;}","ch or","Col lection","Ġthrow s","c r","ul ti","T able","igh t","F le","Fle et","ation Exception","ma il","b ytes","De p","gist er","M odify","R un","V alues","b u","la st","H ash","ri ter","m in","Ġ Array","Par ser","d ata","ar g","pa ce","E mail","T yp","U sage","V AL","Ġexecute Delete","N ot","Ġv alues","Ġ /","F A","ta ch","eren ce",") :","N et","Ġ V","();} }","val id","I p","P re","le ar","Ap plication","Conn ection","D E","e ue","Ġb ytes","ent ry","ct or","Ġm in","U R","er tific","To Hex","ex p","Ġ< <","Sheet Index","f low","g es","I x","Ġsh eet","Ass ociate","Pt g","N ext","S k","ti es","Ap i","P a","S I","Co de","Ġar g","Mod el","At tach","pos it","S E","Record s","Po s","Net work","M em","ing s","Ġs ub","Ġt oken","Ġexecute Create","ific ation","aly zer","Con tain","at es","re q","ĠI OException","Ġsrc RowIndex","or ted","L ast","U sed","a ult","n own","' );","u tion","y ment","Ġo bj","lo yment","oo l","Ġ< =","An d","Dep loyment","F unction","um p","posit ory","C ertific","ing le","ize d","Vp n","sh eet","M ode","es s","it or","iction ary","tim e","Res erved","i tion","Bo ok","atu s","Resol ver","Ġ Char","Ex p","S cal","Ġco unt","C T","Ġ res","No tific","Sch ed","S p","Ġ le","Ġ lo","Ġn ext","Ġexecute List","Ch ild","LittleEndian Output","C lo","U T","ar k","P erm","n ull","Ġ }","Ġn ot","pla ce","te ger","Un i","i es","k nown","ab ility","cl u","Ġinstance of","0 7","P attern","ĠD is","Ġ 3","is sion","Query Node","form at","Perm ission","h ash","is tener","H o","P O","P red","] .","Ġ Start","ti ve","0 0","in ation","Ġb uf","Ġp re","A ll","Ġ T","e e","l d","Ch ange","fa ce","Ġ A","am s","On ly","Connect or","Voice Connector","u sh","Ġup date",") ,","L O","L oc","b ack","an ce","g ion","pon ent","ac et","DB Cluster","Es cher","il l","L istener","Ġ HSSF","qu ery","> ();","n et","if t","co m","ac ter",") ).","f in","f fic","g g","fi rst","Ġst ate","t in","v alu","Ġb lock","En able","W riter","b lock","Ġp ro","Write Short","Tra ffic","t ype","Ġ po","ce i","U L","s um","ri ption","ec ision","up p","Notific ation","I T","Ġ( _","Con stan","Record InputStream","Lin e","on itor","Ġo bject","Aut o","\" ;","S yn","l ation","write Short","Ġ add","si gn","Ġ term","in k","Ġ\" )",";}} }","Scal ing","D ump","M ulti","Hex Dump","a w","tu re","Un known","Ta g","c ur","co mp","Mem ber","Uni code","al k","la gs","Ġout put","Util s","Inter face","E quals","v i","Evalu ate","Le vel","\" ).","W e","x FF","Re pository","or ig","co py","g ress","ul es","AT N","Ġpar ameter","Ġre move","boo lean","Dete ction","Sched ule","Ġ an","De fault","Certific ate","G ame","L ong","ĠRe v","Sub sc","Sk ill","I tem","L abel","l ter","ust om","ate d","ri es","Sub net","e quals","ti c","Ġp ath","Ġre ad","Term s","Byte Buffer","Ass oci","values Offset","L i","L en","p ath","r int","Ma x","P art","p ro","s k","Ġco mp","Ġfi rst","Constan ts","Ġ u","Ġ 8","si d","mp ort","u c","Ġt ype","Re po","ord er","boo l","redenti als","Typ es","U r","o bj","de d","ĠM ath","Ur l","D at","c atch","Ġf loat","No te","byte Buffer","f t","co gn","Dat ab","F req","U M","w it","wit ch","Z E","el ta","id th","W ord","ate g","Se qu","Dire ctory","B ase","Re move","if f","() ){","Ġc urrent","Ġm ust","A N","P ool","U N","Ġ position","Ġd st","Ġd oc","blocks Offset","M erge","Ġexecute Update","Clo ud","- -","A P","Set ting","Pro v","Val id","J Git","e g","st r","lic e","En um","Ġ public","orm al","Doc s","eri es","Ph oto","Datab ase","R oo","Ġ );","Ġ Cell","() :","Z one","c ry","n s","p h","Ġ cell","Ġl ast","ati ve","ĠRe move","Work s","cry ption","Ġ x","te ct","Res et","ri c","F acet","r on","Ġ Object","as sert","ĠB atch","Ġsh ort","SI ZE","Ġparameter s","r t","id er","Cl one","ĠE rror","Associ ation","Ġ 6","] ,","s witch","Re lation","Ġf rom","ay load","Char s","An chor","f loat","re maining","Ġc atch","Ġp t","tain s","E N","); _","ec ode","Ġw rite","Se gment","H T","H and","re cord","ce d","St r","1 1","V ault","s rc","Ġ Read","Ex port","He ader","ch ron","Bytes Used","Se arch","(' \\","chron ized","Ġ Ref","St atus","En cryption","Ġco py","yn chronized","Re cei","Read Short","Filter Factory","Met ric","lement s","C ase","C ustom","c re","Ġ File","Group s","Field s","DB Instance","bu g","Relation al","Y TE","am BytesUsed","ut able","S tem","n t","Ġ ArgumentException","lo g","Ap p","Ġre f","Ġh ash","Bo und","P ack","g r","h e","Ġ th","Ġ Un","Ex ternal","st ate","fore ach","As sert","Ġsh ift","read Short","(\"[ /","Ġiter ations","F ont","O pen","S pec","c le","d oc","Ġ entry","Qu eue","la g","op en","re move","at s","Ex ecution","va il","Cell s","pec ted","De bug","Comp are","clo sing","C apacity","F low","S erv","e er","i mple","Ġ q","Sequ ence","S upp","t rue","Bytes Ref","Loc al","y le","en closing","lo b","rib ution","ist ribution","ass word","Li mit","Relational Database","P S","a il","b s","Format ting","valu ate","A vail","h as","j ect","Ġ G","Ph one","ance l","\" ){","U Short","g h","Ġ y","Ġre maining","Boo lean","Contain er","B its","P ublic","T Y","T ri","e ed","s tener","Ġ at","Ref erence","Array s","Ġli mit","B it","C O","D et","M onitor","Ġ ac","li st","ĠIn dex","orig inal","e ma","ent ries","ĠN Git","I OException","i sh","HT T","' :","S c","y cle","Ġ Stop","Ġe quals","ĠB ytes","Ġr ule","Prov ider","Roo m","B YTE","U E","Protocol Type","UL T","HTT PS","S end","i er","Ġ To","er ver","Re maining","fi lter","Ġj j","Configuration Set","Vpc Endpoint","P ri","v ice","Ġo ld","ro und","JGit Text","lob al","S core","b it","l ine","Sch ema","L ex","si c","Ġc l","ta x","Comp ar","R est","V irtual","is Empty","Ġ+ +","FA ULT","ĠError Eval","N UM","P eer","m s","Evalu ationException","Range Address","Phone Number","L a","O verride","t able","u se","u rn","Pro cess","Oper and","Ġ text","li ver","po t","Group Request","Dire ct",") ((","A M","A X","Qu al","Com ponent","uf fix","ĠDis associate","L if","R aw","ce pt","Ġ{ _","ec ycle","Con ta","De liver","Ġe valuate","Ac ti","ĠR un","ĠBytes Ref","Lif ecycle","Conta ct","/ [","B J","B locks","S ec","array copy","Or d","num ber","R ules","er ror","st ra","sh ape","de fault","ol d","ced ence","M odif","O ffer","O BJ","Ġ Evaluate","st ings","Re port","res sion","Work book","Ġh e","cogn izer","C urrent","m d","in ary","Sh ape","Col or","ĠB yte","C K","F ind","G lobal","++ ;","ĠE s","Ġform at","Ġ Term","Ġ Associate","An alyzer","ĠArray List","tin ue","P E","b ase","Get Type","ĠE quals","Out Of","N ew","te p","our ces","Rev ision","VAL ID","VAL UE","c ate","Ġb u","um e","Ġ\" );","Ġst r","De vice","Pro x","Ġre cord","bo x","Tree Filter","S pot","s ted","ot al",");}} }","Client Vpn","Attach ment","Subsc ription","AP I","Serv ice","F I","M in","Ġ Sh","Ġ TokenStream","ing Array","ra se","Ġco m","UR I","C all","O F","ct x","and s","IN VALID","Recei pt","C E","S ign","Re plication","ol der","Es tim","m atch","w ard","Ġ H","le x","Ġs erialize","out put","redenti al","clu de","ĠEs cher","l ink","o und","r ap","z z","Prox y","( @","B ack","D istribution","I mport","Ġst op","Key s","Dete ctor","Ġcol umn","Ġform ula","G en","S H","S ingle","m od","Ġ Token","re g","re po","In te","Syn tax","A gg","V is","a ct","k er","est ination","Work flow","Author ization","PO ST","Ġcl one","A rea","m ap","Ġ Record","A li","F ra","M o","] );","l ative","Ġ Parse","ing Job","Id x","ĠS erialize","Ġother Buffer","Ġ>> >","Route Table","Pa ir","Detection Job","Peer ing","T H","re t","Ġm atch","Ġ(! (","Pa rent","G E","y m","ir ror","ĠS e","pt r","Dis associate","Only Buffer","BYTE S","Sp an","Pred iction","Works pace","c ation","f alse","o per","Offset s","bo ard","ee k","s With","get Name","ĠI s","Tra ck","Error Eval","Ho sted","gion s","C H","M irror","S erver","g roup","p attern","Ġ\" ,","Auto Scaling","comp are","open API","C redentials","i ed","Ġ Con","st ream","pa rent","Oper ationException","I LittleEndianOutput","Ġ St","Group Response","OR D","Hand l","F loat","H IT","M utable","g en","li sh","am Usage","Ġv al","Avail ability","Estim ator","amUsage Estimator","C am","S ection","Ġ Number","Ġ original","re gister","ar pen","is on","id x","Polic ies","Tran sition","pa ign","Ass ess","Al ar","Point s","Traffic Mirror","Game Session","Virtual Interface","Qual ification","Cam paign","Assess ment","V ol","v io","Ġ [","Ġ en","ri pt","Sheet Name","Pre fix","ition al","vio us","v ate","si ve","Up to","Ġch ild","gh t","filter s","A D","E CT","u re","qu eue","In teger","Up load","mple m","Reserved Instances","i stance","te mp","Ġo ff","ad ata","Ġs ource","ire ctory","Per Value","I mplem","a f","s or","en ted","ri g","res erved","Ġle x","Implem ented","6 4","Ġ un","et hod","is sing","En ti","Pro gress","ĠS end","Stream ing","TE R","token s","Ġ ObjectId","er ic","ma k","ma sk","S imple","er ator","Name Record","Inter val","=\" ).","Acti v","c reate","f ont","m ark","Ġ query","ul ture","Ġb ack","Ġf or","Evalu ation","ĠR amUsageEstimator","0 6","D ash","N ull","O ver","V E","p ing","fi le","Token s","ic ate","Jo urn","Met adata","201 6","201 7","time Exception","place ment","Note book","Monitor ing","Dash board","p ic","Ġ J","Ġ Field","Ġ Clone","Ġ( \"","ver t","stra int","reg ate","1 2","D estination","O rig","Ġ al","ub lish","In valid","St yle","Ġs ynchronized","lan g","UT F","f lags","i red","p rint","s on","Ġ Reset","Oper ation","Method Type","Ġiter ator","ĠRun timeException","U ri","l ush","Ġ all","un c","set Method","Fil l","Ġde fault","Supp orted","Ġ %","re c","Ġo f","get Class","od y","od es","Ġre t","ĠM ethod","LO CK","OBJ ECT","ĠMethod Type","I mpl","P la","d s","g round","i ti","u sed","Ġ raw","ul d","fi er","Char acter","Fa ce","Identi fier","Dete ct","Ġnum ber","Offer ing","Activ ity","I O","M L","Ġ append","Ġ Query","Ġ\" '","De fin","ect or","ID ictionary","Or der","Uri Pattern","N O","c lear","d ing","Ġ Operand","() ).","En code","ach ed","flow Exception","cre ment","Tri al","ĠOperand Resolver","1 6","d itional","er Action","In v","At t","Fil es","Ġfield s","Evalu ator","Formula String","its PerValue","Th read","clo ud","Ord inal","Implemented Exception","A rn","p art","u ser","al th","ist s","res h","Ap ns","Ġre ader","tern Sheet","Data set","Names pace","Parse Tree","Connect Gateway","Traffic Policy","eg in","Direct ConnectGateway","Receipt Rule","Agg regate","Notebook Instance","I ON","W alk","a v","g ing","Ġ ord","ĠIn teger","Ġs up","An y","Call able","ditional Formatting","N G","] );}","d Query","m er","qu al","en e","en ten","fi ll","un ch","res sed","field s","Size Of","Ġsrc Offset","Configuration Request","Ġcon tains","ore Case","Ġpre fix","Schedule d","uc ene","Bound s","Det ail","La unch","M P","S ort","c apacity","Ġ Ex","ar cher","end ing","ĠD ouble","Ġ1 6","Ac cept","Ġpt r","Alar m","= =","T A","o te","Group Name","Configuration Response","Not ImplementedException",". .","D ecision","a ges","i able","n er","all y","ut f","Ġc mp","Ġm essage","He alth","Collection s","Ġmin Size","ĠRev Filter","B e","O p","P ip","m t","n ect","ok up","Ġ1 0","ta g","Policy Request","Pt r","Dis k","Ġg roup","Ġvalues Offset","Ġdst Offset","enten ce",") (","E d","M ath","li stener","String Util","up to","Con f","ĠS p","ack ed","Num eric","Key Id","Ho st","Ġan chor","Cloud Photo","ph oto","Ali as","Handl er","Vol ume","Defin ition","cloud photo","E lement","e k","f rom","Ġ Exception","es Request","et ach","Re c","ce ment","ĠIn valid","id r","Char Sequence","leg ate","Ġ' \\","ann ot","Log ging","Typ ed","I List","d u","i b","i al","Ġo per","Id s","Ġre c","term s","lan k","par se","F lag","P ort","P ublish","a red","g ration","o uld","s ource","s By","qu eries","ro ot","Ġt a","ava il","As sign","Field Level","IN G","value Of","Output Stream","Attributes Request","Tags For","par ams","Game Server","Compar ison","Inte gration","Inv it","Typed Link","FieldLevel Encryption","F r","c mp","t g","In tern","Con straint","Ġst ream","ck et","Hash Map","Ġcomp are","ĠSe arch","D ir","M an","S tep","V ector","b ol","si te","Ġ\" \\","ten t","Term ination","Cluster Snapshot","Ġblocks Offset","Ġid x","ym bol","OnlyBuffer Exception","I f","P ayload","al et","Ġc r","En co","res et","as sic","Cl assic","ĠNumber Eval","alet te","D ec","t x","Ġ ){","es cher","et Gateway","Ġv als","Con ditionalFormatting","Ġp attern","ĠRe gister","Ver ification","Aut om","sum e","sk ip","ateg y","nt k","Intern etGateway","< >();","R OR","an g","ex ternal","con tinue","DE FAULT","Ġcolumn Index","Workflow Execution","1 0","B LOCK","b core","ver sion","Ġd is","field Name","ĠString Comparison","Pro pos","tern SheetIndex","Map ping","Rule Context","Al lo","Ġrow Index","C ached","D istance","E sc","P assword","Ġ it","Ġv er","ch ild","ĠIn t","Con fi","Ġex p","ĠS ub","Lo ck","trib ute","ĠN B","IN T","boo t","Ġres et","Pred icate","Ġ\") \";}","Ġbu ild","C idr","R O","Z on","Ġ Enable","In ternal","Ġv ault","Ġf unction","ol ution","Write Int","con nect","ian t","Instances Request","Ro le","igh ted","Run time","Ġsheet Index","Modif ic","C ulture","F ull","Ġ as","le d","si tive","Ġd ate","oo p","ab les","Ġp a","char s","Contain s","Exp ression","Word s","Ġth e","CH AR","P lan","t al","er r","ex pected","Ġ+ \"","Index Of","Ġd b","Write Byte","col or","Vpc Peering","Identity Pool","cl one","Ma il","Usage Plan","exp entries","Resolver Rule","cur sor","Local Gateway","Deliver y","MP TY","A TE","O ption","W idth","i a","v ed","ĠD E","++ ;}","ĠĠĠĠ ĠĠĠ","Ġw ord","con tains","uc cess","L D","s g","Ġ TreeFilter","Pro tect","sion s","Data Source","Key Pair","Ġh as","ind ow","Ġcon text","SE T","clu sive","Pip el",": \"","B und","F lags","N odes","f ter","t ra","an tic","set Protocol","ĠS ize","State Exception","Rev Filter","First Row","LE NG","Boo st","Hash table","Hosted Zone","antic Context","LENG TH","C ancel","s p","Ġ 5","Ġ ProtocolType","ut or","ĠIn ter","Ġf ind","Sh ingle","Ġsh ape","Ġfi le","ĠIllegal StateException","us es","We b","ATN Config","Ġvault Name","C ateg","S erialize","c p","h o","r ule","es Response","in ate","Ġc lear","Ġ- =","Com ment","ran ge","File System","Ph rase","ĠDis able","Replication Group","d ic","u ri","er Instance","le m","ĠD etach","un used","ist ory","Ġl ink","mo te","read UShort","con fig","Point er","Change d","Ġu ser","Str ategy","ĠSh arpen","Pla cement","Shingle Size","C redential","D FA","I M","d st","d ec","Ġ error","Get Value","Ġs napshot","Index OutOf","ĠB oo","Ġw ork","Ver if","Ġli bcore","om in","write Int","iter ator","short ToHex","201 8","Enable d","Health Check","Ġpa rent","D esc","L ow","S u","] \");","s tic","In crement","le tion","at on","(); _","Ġm ark","Read UShort","count Id","con d","ĠL ong","ON E","pre fix","UR L","TY PE","mak ing","iti al","C al","D raw","L L","S id","Ġ Constants","Ġb itsPerValue","ch ase","Ġd o","ur chase","ĠDescribe DB","Com po","mo de","Trans port","cl ass","ER ROR","Proper ties","par ator","Ġlo cation","back ingArray","block Size","Ġan alyzer","he ad","Invit ation","F ound","H um","I P","O ld","S olution","d b","f er","g or","t otal","u int","Re gister","sh ip","St atu","ch ange","Instance Request","Ġl abel","ĠĠĠĠ Ġ","ĠM AX","Cell RangeAddress","Char Buffer","Map Class","Work te","Profi les","Attributes Response","Le ft","Match making","Document Class","sub string","TransitGateway RouteTable","bu ild","Email Identity","Network Interface","Member ship","Journ ey","Assign ment","Classic Link","Delivery Stream","Hum an","gor ith","D O","H istory","d ir","s m","Ġ K","Ġ Copy","Ġ Formula","Ġ Attach","er ation","est ore","Ġ\" /","Ġs val","Ġd ecision","Ġm odify","write Byte","Ġcom mit","ĠSize Of","F older","P ush","S lice","b b","rn dQuery","Ex ten","Ġc apacity","Ar gs","Ġbyte Count","Job Flow","Policy Response","Trans fer","Any ObjectId","ĠInvalid OperationException","Propos al","Allo cate","+ \"","R et","R en","] /","Ġ ap","Ġ Write","Ġ\" ]","Ġl ine","Ġre po","Ġ1 2","to Hex","Ġfi ll","Bit Set","URI ish","gorith m","k e","r atch","Ġ load","Ġ= \").","Re ct","St ats","Ġs lice","Ġex t","Ġexecute Modify","Group sRequest","la uses","Work er","ĠR aw","sc ratch","ĠC ancel","Message Format","Ġchar s","zer o","arg in","Ġterm s","ĠCell RangeAddress","record s","gr bit","ĠParse Exception","queue Url",": {","> ();}","B LE","C lear","U Byte","s q","Ġ Buffer","le ctor","Ġ( @","ver se","Ġd elta","Char Array","im al","Sub string","gn oreCase","Ġblock Size","oper ands","dic ated","A S","B ody","D iff","E lements","M AX","s Ref","v ir","v ision","w e","on ment","In it","le ase","Ġint er","En g","var iant","Ġp art","Value Source","Ġm ap","Token izer","ĠI List","Ġsrc Cell","ile d","work book","Sk ip","App ly","Ġrule Index","Process or","Zon es","Low er","Workte am","vir onment","B reak","P ID","c ache","k ip","s ynchronized","Ġ on","an t","an ges","ri m","il li","row Index","Ġexecute Put","Ġli stener","Client Anchor","com m","Confi gs","B O","D I","E OF","L A","P UT","c ast","m is","p g","s For","t l","t arget","in stance","ri ptions","Ġ\" <","Id ent","Read Int","Ġbyte Buffer","ID Map","pa ces"]}}